<pad>	0.0
<s>	0.0
</s>	0.0
<unk>	0.0
<0x00>	0.0
<0x01>	0.0
<0x02>	0.0
<0x03>	0.0
<0x04>	0.0
<0x05>	0.0
<0x06>	0.0
<0x07>	0.0
<0x08>	0.0
<0x09>	0.0
<0x0A>	0.0
<0x0B>	0.0
<0x0C>	0.0
<0x0D>	0.0
<0x0E>	0.0
<0x0F>	0.0
<0x10>	0.0
<0x11>	0.0
<0x12>	0.0
<0x13>	0.0
<0x14>	0.0
<0x15>	0.0
<0x16>	0.0
<0x17>	0.0
<0x18>	0.0
<0x19>	0.0
<0x1A>	0.0
<0x1B>	0.0
<0x1C>	0.0
<0x1D>	0.0
<0x1E>	0.0
<0x1F>	0.0
<0x20>	0.0
<0x21>	0.0
<0x22>	0.0
<0x23>	0.0
<0x24>	0.0
<0x25>	0.0
<0x26>	0.0
<0x27>	0.0
<0x28>	0.0
<0x29>	0.0
<0x2A>	0.0
<0x2B>	0.0
<0x2C>	0.0
<0x2D>	0.0
<0x2E>	0.0
<0x2F>	0.0
<0x30>	0.0
<0x31>	0.0
<0x32>	0.0
<0x33>	0.0
<0x34>	0.0
<0x35>	0.0
<0x36>	0.0
<0x37>	0.0
<0x38>	0.0
<0x39>	0.0
<0x3A>	0.0
<0x3B>	0.0
<0x3C>	0.0
<0x3D>	0.0
<0x3E>	0.0
<0x3F>	0.0
<0x40>	0.0
<0x41>	0.0
<0x42>	0.0
<0x43>	0.0
<0x44>	0.0
<0x45>	0.0
<0x46>	0.0
<0x47>	0.0
<0x48>	0.0
<0x49>	0.0
<0x4A>	0.0
<0x4B>	0.0
<0x4C>	0.0
<0x4D>	0.0
<0x4E>	0.0
<0x4F>	0.0
<0x50>	0.0
<0x51>	0.0
<0x52>	0.0
<0x53>	0.0
<0x54>	0.0
<0x55>	0.0
<0x56>	0.0
<0x57>	0.0
<0x58>	0.0
<0x59>	0.0
<0x5A>	0.0
<0x5B>	0.0
<0x5C>	0.0
<0x5D>	0.0
<0x5E>	0.0
<0x5F>	0.0
<0x60>	0.0
<0x61>	0.0
<0x62>	0.0
<0x63>	0.0
<0x64>	0.0
<0x65>	0.0
<0x66>	0.0
<0x67>	0.0
<0x68>	0.0
<0x69>	0.0
<0x6A>	0.0
<0x6B>	0.0
<0x6C>	0.0
<0x6D>	0.0
<0x6E>	0.0
<0x6F>	0.0
<0x70>	0.0
<0x71>	0.0
<0x72>	0.0
<0x73>	0.0
<0x74>	0.0
<0x75>	0.0
<0x76>	0.0
<0x77>	0.0
<0x78>	0.0
<0x79>	0.0
<0x7A>	0.0
<0x7B>	0.0
<0x7C>	0.0
<0x7D>	0.0
<0x7E>	0.0
<0x7F>	0.0
<0x80>	0.0
<0x81>	0.0
<0x82>	0.0
<0x83>	0.0
<0x84>	0.0
<0x85>	0.0
<0x86>	0.0
<0x87>	0.0
<0x88>	0.0
<0x89>	0.0
<0x8A>	0.0
<0x8B>	0.0
<0x8C>	0.0
<0x8D>	0.0
<0x8E>	0.0
<0x8F>	0.0
<0x90>	0.0
<0x91>	0.0
<0x92>	0.0
<0x93>	0.0
<0x94>	0.0
<0x95>	0.0
<0x96>	0.0
<0x97>	0.0
<0x98>	0.0
<0x99>	0.0
<0x9A>	0.0
<0x9B>	0.0
<0x9C>	0.0
<0x9D>	0.0
<0x9E>	0.0
<0x9F>	0.0
<0xA0>	0.0
<0xA1>	0.0
<0xA2>	0.0
<0xA3>	0.0
<0xA4>	0.0
<0xA5>	0.0
<0xA6>	0.0
<0xA7>	0.0
<0xA8>	0.0
<0xA9>	0.0
<0xAA>	0.0
<0xAB>	0.0
<0xAC>	0.0
<0xAD>	0.0
<0xAE>	0.0
<0xAF>	0.0
<0xB0>	0.0
<0xB1>	0.0
<0xB2>	0.0
<0xB3>	0.0
<0xB4>	0.0
<0xB5>	0.0
<0xB6>	0.0
<0xB7>	0.0
<0xB8>	0.0
<0xB9>	0.0
<0xBA>	0.0
<0xBB>	0.0
<0xBC>	0.0
<0xBD>	0.0
<0xBE>	0.0
<0xBF>	0.0
<0xC0>	0.0
<0xC1>	0.0
<0xC2>	0.0
<0xC3>	0.0
<0xC4>	0.0
<0xC5>	0.0
<0xC6>	0.0
<0xC7>	0.0
<0xC8>	0.0
<0xC9>	0.0
<0xCA>	0.0
<0xCB>	0.0
<0xCC>	0.0
<0xCD>	0.0
<0xCE>	0.0
<0xCF>	0.0
<0xD0>	0.0
<0xD1>	0.0
<0xD2>	0.0
<0xD3>	0.0
<0xD4>	0.0
<0xD5>	0.0
<0xD6>	0.0
<0xD7>	0.0
<0xD8>	0.0
<0xD9>	0.0
<0xDA>	0.0
<0xDB>	0.0
<0xDC>	0.0
<0xDD>	0.0
<0xDE>	0.0
<0xDF>	0.0
<0xE0>	0.0
<0xE1>	0.0
<0xE2>	0.0
<0xE3>	0.0
<0xE4>	0.0
<0xE5>	0.0
<0xE6>	0.0
<0xE7>	0.0
<0xE8>	0.0
<0xE9>	0.0
<0xEA>	0.0
<0xEB>	0.0
<0xEC>	0.0
<0xED>	0.0
<0xEE>	0.0
<0xEF>	0.0
<0xF0>	0.0
<0xF1>	0.0
<0xF2>	0.0
<0xF3>	0.0
<0xF4>	0.0
<0xF5>	0.0
<0xF6>	0.0
<0xF7>	0.0
<0xF8>	0.0
<0xF9>	0.0
<0xFA>	0.0
<0xFB>	0.0
<0xFC>	0.0
<0xFD>	0.0
<0xFE>	0.0
<0xFF>	0.0
▁t	-0.0
▁a	-1.0
in	-2.0
he	-3.0
re	-4.0
on	-5.0
er	-6.0
▁the	-7.0
▁s	-8.0
▁w	-9.0
or	-10.0
at	-11.0
nd	-12.0
ou	-13.0
▁c	-14.0
it	-15.0
es	-16.0
▁f	-17.0
is	-18.0
ing	-19.0
en	-20.0
▁b	-21.0
▁p	-22.0
▁o	-23.0
an	-24.0
ed	-25.0
▁to	-26.0
al	-27.0
▁m	-28.0
ar	-29.0
▁and	-30.0
▁in	-31.0
▁of	-32.0
▁d	-33.0
le	-34.0
ic	-35.0
as	-36.0
▁h	-37.0
om	-38.0
ion	-39.0
▁th	-40.0
il	-41.0
▁T	-42.0
▁l	-43.0
ent	-44.0
ve	-45.0
▁I	-46.0
ro	-47.0
st	-48.0
▁y	-49.0
▁e	-50.0
▁re	-51.0
▁n	-52.0
▁S	-53.0
▁g	-54.0
et	-55.0
ct	-56.0
▁A	-57.0
▁C	-58.0
▁you	-59.0
ly	-60.0
ay	-61.0
id	-62.0
▁for	-63.0
▁on	-64.0
▁is	-65.0
ot	-66.0
▁be	-67.0
ow	-68.0
ol	-69.0
am	-70.0
ac	-71.0
ig	-72.0
us	-73.0
ad	-74.0
el	-75.0
▁M	-76.0
im	-77.0
ver	-78.0
ith	-79.0
ut	-80.0
▁st	-81.0
▁P	-82.0
ation	-83.0
▁with	-84.0
ur	-85.0
▁B	-86.0
▁that	-87.0
ir	-88.0
▁W	-89.0
ch	-90.0
▁he	-91.0
▁it	-92.0
▁The	-93.0
ce	-94.0
ill	-95.0
ers	-96.0
un	-97.0
▁al	-98.0
▁D	-99.0
ul	-100.0
▁an	-101.0
▁H	-102.0
▁F	-103.0
out	-104.0
ra	-105.0
ke	-106.0
▁pro	-107.0
▁wh	-108.0
▁as	-109.0
▁are	-110.0
se	-111.0
ter	-112.0
▁we	-113.0
▁ha	-114.0
▁R	-115.0
oo	-116.0
if	-117.0
ge	-118.0
our	-119.0
pp	-120.0
▁at	-121.0
ate	-122.0
ess	-123.0
▁com	-124.0
▁or	-125.0
▁con	-126.0
▁L	-127.0
her	-128.0
ore	-129.0
est	-130.0
▁fr	-131.0
ment	-132.0
igh	-133.0
▁-	-134.0
ab	-135.0
▁N	-136.0
▁se	-137.0
▁ne	-138.0
ld	-139.0
ort	-140.0
▁G	-141.0
▁E	-142.0
ri	-143.0
ist	-144.0
▁(	-145.0
▁your	-146.0
op	-147.0
▁O	-148.0
▁ex	-149.0
em	-150.0
ure	-151.0
ity	-152.0
▁r	-153.0
ant	-154.0
qu	-155.0
▁v	-156.0
▁was	-157.0
art	-158.0
ust	-159.0
▁have	-160.0
ive	-161.0
um	-162.0
▁this	-163.0
▁from	-164.0
pe	-165.0
▁de	-166.0
oc	-167.0
▁sh	-168.0
th	-169.0
ain	-170.0
up	-171.0
ies	-172.0
▁will	-173.0
▁by	-174.0
ight	-175.0
▁ch	-176.0
and	-177.0
os	-178.0
▁can	-179.0
ie	-180.0
nt	-181.0
all	-182.0
▁us	-183.0
ome	-184.0
▁not	-185.0
ard	-186.0
ud	-187.0
▁le	-188.0
res	-189.0
▁J	-190.0
ast	-191.0
..	-192.0
ost	-193.0
▁pl	-194.0
ear	-195.0
▁ab	-196.0
ack	-197.0
▁su	-198.0
iv	-199.0
▁wor	-200.0
gh	-201.0
▁all	-202.0
rou	-203.0
ide	-204.0
ould	-205.0
▁j	-206.0
ell	-207.0
ial	-208.0
te	-209.0
ak	-210.0
ine	-211.0
od	-212.0
ag	-213.0
are	-214.0
▁has	-215.0
ice	-216.0
▁U	-217.0
▁Th	-218.0
▁do	-219.0
age	-220.0
▁k	-221.0
ook	-222.0
fe	-223.0
▁ad	-224.0
▁me	-225.0
ip	-226.0
▁In	-227.0
▁comp	-228.0
▁but	-229.0
▁up	-230.0
▁out	-231.0
ake	-232.0
per	-233.0
red	-234.0
▁whe	-235.0
ions	-236.0
ally	-237.0
pt	-238.0
ry	-239.0
og	-240.0
one	-241.0
▁more	-242.0
ail	-243.0
able	-244.0
ind	-245.0
▁my	-246.0
ite	-247.0
▁our	-248.0
ther	-249.0
▁en	-250.0
▁“	-251.0
very	-252.0
▁Y	-253.0
▁sa	-254.0
▁so	-255.0
ich	-256.0
ime	-257.0
cc	-258.0
▁cl	-259.0
ong	-260.0
▁their	-261.0
▁K	-262.0
ated	-263.0
ood	-264.0
ame	-265.0
orm	-266.0
▁St	-267.0
▁they	-268.0
▁one	-269.0
▁te	-270.0
ber	-271.0
ace	-272.0
ike	-273.0
iz	-274.0
▁about	-275.0
so	-276.0
ous	-277.0
du	-278.0
ick	-279.0
ase	-280.0
ans	-281.0
▁"	-282.0
▁V	-283.0
pl	-284.0
▁cont	-285.0
act	-286.0
ia	-287.0
▁im	-288.0
▁work	-289.0
▁un	-290.0
▁who	-291.0
ree	-292.0
cl	-293.0
ire	-294.0
▁fe	-295.0
ign	-296.0
▁off	-297.0
▁his	-298.0
▁man	-299.0
ue	-300.0
ff	-301.0
ance	-302.0
▁go	-303.0
ll	-304.0
ach	-305.0
▁year	-306.0
▁new	-307.0
▁tr	-308.0
ays	-309.0
ne	-310.0
reat	-311.0
▁It	-312.0
ction	-313.0
ub	-314.0
ib	-315.0
ult	-316.0
▁app	-317.0
erv	-318.0
und	-319.0
▁We	-320.0
ap	-321.0
▁Ch	-322.0
ass	-323.0
▁qu	-324.0
ep	-325.0
▁res	-326.0
ary	-327.0
ark	-328.0
▁sp	-329.0
▁per	-330.0
ations	-331.0
ile	-332.0
ove	-333.0
form	-334.0
▁int	-335.0
▁get	-336.0
▁also	-337.0
▁time	-338.0
▁which	-339.0
ount	-340.0
ven	-341.0
▁like	-342.0
own	-343.0
▁other	-344.0
ents	-345.0
▁some	-346.0
ond	-347.0
ord	-348.0
▁any	-349.0
ings	-350.0
vel	-351.0
av	-352.0
▁been	-353.0
ical	-354.0
▁over	-355.0
▁part	-356.0
ress	-357.0
▁This	-358.0
▁dis	-359.0
ks	-360.0
▁He	-361.0
ors	-362.0
ence	-363.0
▁said	-364.0
▁sc	-365.0
▁rec	-366.0
▁ar	-367.0
ition	-368.0
▁them	-369.0
▁ag	-370.0
▁when	-371.0
▁pe	-372.0
ild	-373.0
port	-374.0
▁her	-375.0
ound	-376.0
ough	-377.0
▁kn	-378.0
ose	-379.0
ob	-380.0
irst	-381.0
low	-382.0
▁just	-383.0
mer	-384.0
int	-385.0
▁ro	-386.0
ov	-387.0
ck	-388.0
ish	-389.0
▁what	-390.0
oy	-391.0
▁pr	-392.0
ru	-393.0
▁spe	-394.0
▁pre	-395.0
▁there	-396.0
ens	-397.0
wn	-398.0
▁acc	-399.0
day	-400.0
▁if	-401.0
ren	-402.0
▁than	-403.0
▁would	-404.0
▁need	-405.0
▁Re	-406.0
▁had	-407.0
vers	-408.0
▁its	-409.0
▁were	-410.0
ink	-411.0
fter	-412.0
ning	-413.0
▁am	-414.0
ater	-415.0
...	-416.0
▁des	-417.0
old	-418.0
itt	-419.0
clud	-420.0
ade	-421.0
rough	-422.0
▁tw	-423.0
▁into	-424.0
lp	-425.0
ory	-426.0
use	-427.0
ople	-428.0
ool	-429.0
ang	-430.0
▁first	-431.0
▁how	-432.0
▁bec	-433.0
▁help	-434.0
lic	-435.0
hed	-436.0
ons	-437.0
▁add	-438.0
anc	-439.0
ft	-440.0
▁make	-441.0
amp	-442.0
gr	-443.0
▁bl	-444.0
▁look	-445.0
▁–	-446.0
▁Wh	-447.0
▁prov	-448.0
▁col	-449.0
▁includ	-450.0
▁people	-451.0
▁comm	-452.0
▁produ	-453.0
▁You	-454.0
▁Ne	-455.0
ual	-456.0
▁know	-457.0
ful	-458.0
▁she	-459.0
ian	-460.0
ments	-461.0
ates	-462.0
iew	-463.0
round	-464.0
▁em	-465.0
▁every	-466.0
▁back	-467.0
▁only	-468.0
▁serv	-469.0
tern	-470.0
les	-471.0
ious	-472.0
▁no	-473.0
▁may	-474.0
rent	-475.0
▁through	-476.0
▁bu	-477.0
ict	-478.0
▁most	-479.0
cts	-480.0
ating	-481.0
▁see	-482.0
▁want	-483.0
▁two	-484.0
▁ph	-485.0
com	-486.0
pport	-487.0
▁As	-488.0
xt	-489.0
we	-490.0
ities	-491.0
ices	-492.0
iss	-493.0
▁use	-494.0
▁well	-495.0
ont	-496.0
▁bet	-497.0
▁after	-498.0
▁If	-499.0
ise	-500.0
hing	-501.0
▁ind	-502.0
ause	-503.0
▁play	-504.0
▁Se	-505.0
ph	-506.0
▁und	-507.0
je	-508.0
▁&	-509.0
▁co	-510.0
ife	-511.0
▁|	-512.0
ock	-513.0
ily	-514.0
▁stud	-515.0
lect	-516.0
row	-517.0
▁act	-518.0
ting	-519.0
iness	-520.0
▁fl	-521.0
hen	-522.0
▁years	-523.0
▁Com	-524.0
▁Un	-525.0
urn	-526.0
ts	-527.0
▁$	-528.0
enc	-529.0
aw	-530.0
▁these	-531.0
▁tra	-532.0
▁An	-533.0
fore	-534.0
▁cons	-535.0
▁under	-536.0
als	-537.0
cial	-538.0
ange	-539.0
▁exper	-540.0
bs	-541.0
aking	-542.0
▁ke	-543.0
oth	-544.0
▁now	-545.0
ures	-546.0
ational	-547.0
▁very	-548.0
▁Pro	-549.0
▁wee	-550.0
▁bus	-551.0
▁good	-552.0
▁gu	-553.0
ased	-554.0
vent	-555.0
▁And	-556.0
formation	-557.0
▁many	-558.0
▁sm	-559.0
get	-560.0
▁way	-561.0
any	-562.0
▁reg	-563.0
erson	-564.0
oint	-565.0
ific	-566.0
ward	-567.0
▁De	-568.0
ert	-569.0
ility	-570.0
▁start	-571.0
▁fin	-572.0
▁dif	-573.0
▁could	-574.0
rit	-575.0
lease	-576.0
▁great	-577.0
▁imp	-578.0
ork	-579.0
uch	-580.0
▁day	-581.0
fect	-582.0
▁rem	-583.0
▁Sh	-584.0
yst	-585.0
▁rel	-586.0
ience	-587.0
ible	-588.0
▁even	-589.0
▁For	-590.0
uring	-591.0
ty	-592.0
▁show	-593.0
▁high	-594.0
oss	-595.0
ics	-596.0
▁sec	-597.0
ull	-598.0
▁own	-599.0
nds	-600.0
velop	-601.0
▁inv	-602.0
▁where	-603.0
▁here	-604.0
▁don	-605.0
▁inc	-606.0
▁down	-607.0
).	-608.0
▁ent	-609.0
ident	-610.0
hes	-611.0
olog	-612.0
cess	-613.0
▁loc	-614.0
arch	-615.0
▁right	-616.0
ble	-617.0
▁then	-618.0
chool	-619.0
▁home	-620.0
▁should	-621.0
▁Al	-622.0
▁New	-623.0
elf	-624.0
alth	-625.0
The	-626.0
▁ass	-627.0
ied	-628.0
▁br	-629.0
its	-630.0
ited	-631.0
▁find	-632.0
ath	-633.0
air	-634.0
ular	-635.0
▁read	-636.0
▁too	-637.0
▁ac	-638.0
hip	-639.0
▁av	-640.0
▁set	-641.0
ix	-642.0
▁car	-643.0
▁fam	-644.0
ner	-645.0
▁information	-646.0
▁mon	-647.0
gan	-648.0
line	-649.0
▁best	-650.0
▁last	-651.0
ys	-652.0
▁min	-653.0
gram	-654.0
▁take	-655.0
io	-656.0
▁design	-657.0
▁Cl	-658.0
pect	-659.0
ract	-660.0
▁long	-661.0
ason	-662.0
▁did	-663.0
▁inst	-664.0
▁much	-665.0
omet	-666.0
▁che	-667.0
||	-668.0
erm	-669.0
▁Be	-670.0
▁business	-671.0
ystem	-672.0
▁because	-673.0
▁before	-674.0
other	-675.0
ank	-676.0
▁dec	-677.0
ues	-678.0
▁But	-679.0
▁att	-680.0
▁ins	-681.0
▁Fr	-682.0
.”	-683.0
▁made	-684.0
▁team	-685.0
ative	-686.0
▁call	-687.0
▁Le	-688.0
▁him	-689.0
pr	-690.0
▁sur	-691.0
pen	-692.0
atch	-693.0
▁cre	-694.0
rib	-695.0
me	-696.0
▁think	-697.0
ject	-698.0
ollow	-699.0
az	-700.0
▁again	-701.0
▁world	-702.0
way	-703.0
ax	-704.0
ale	-705.0
ug	-706.0
▁Ad	-707.0
▁art	-708.0
▁mem	-709.0
▁does	-710.0
alk	-711.0
),	-712.0
▁vis	-713.0
arket	-714.0
▁being	-715.0
▁pres	-716.0
ave	-717.0
▁develop	-718.0
▁person	-719.0
oun	-720.0
▁requ	-721.0
arn	-722.0
ustom	-723.0
ower	-724.0
chn	-725.0
rest	-726.0
▁inte	-727.0
arm	-728.0
ient	-729.0
▁life	-730.0
▁those	-731.0
ener	-732.0
▁diffe	-733.0
▁such	-734.0
ins	-735.0
▁med	-736.0
ng	-737.0
ivers	-738.0
ince	-739.0
ouse	-740.0
▁support	-741.0
ving	-742.0
▁while	-743.0
ash	-744.0
irect	-745.0
▁Ar	-746.0
▁pol	-747.0
view	-748.0
land	-749.0
▁sk	-750.0
▁provid	-751.0
ss	-752.0
unity	-753.0
ier	-754.0
▁lead	-755.0
▁ra	-756.0
▁Te	-757.0
▁each	-758.0
▁around	-759.0
▁book	-760.0
der	-761.0
▁love	-762.0
▁free	-763.0
▁used	-764.0
ced	-765.0
akes	-766.0
▁care	-767.0
▁end	-768.0
read	-769.0
▁mod	-770.0
ailable	-771.0
▁ser	-772.0
▁comple	-773.0
▁post	-774.0
▁run	-775.0
▁gr	-776.0
ather	-777.0
▁disc	-778.0
▁sim	-779.0
ric	-780.0
▁program	-781.0
ality	-782.0
▁ret	-783.0
▁pub	-784.0
ces	-785.0
ional	-786.0
ages	-787.0
ually	-788.0
▁bo	-789.0
▁cur	-790.0
▁ed	-791.0
ines	-792.0
imes	-793.0
ton	-794.0
ives	-795.0
▁All	-796.0
▁det	-797.0
▁really	-798.0
roup	-799.0
ple	-800.0
oad	-801.0
ars	-802.0
▁eas	-803.0
ets	-804.0
▁On	-805.0
▁child	-806.0
▁system	-807.0
▁There	-808.0
▁So	-809.0
▁num	-810.0
iel	-811.0
au	-812.0
ize	-813.0
▁follow	-814.0
▁trans	-815.0
."	-816.0
led	-817.0
ene	-818.0
▁count	-819.0
▁going	-820.0
▁found	-821.0
,”	-822.0
▁top	-823.0
ah	-824.0
▁form	-825.0
▁char	-826.0
▁somet	-827.0
iet	-828.0
▁three	-829.0
ittle	-830.0
▁inter	-831.0
▁list	-832.0
▁cour	-833.0
ames	-834.0
man	-835.0
▁still	-836.0
▁Bl	-837.0
▁fun	-838.0
▁How	-839.0
▁month	-840.0
▁available	-841.0
▁place	-842.0
▁del	-843.0
ature	-844.0
▁Pl	-845.0
▁custom	-846.0
ute	-847.0
ness	-848.0
▁though	-849.0
▁They	-850.0
▁feel	-851.0
ways	-852.0
▁prof	-853.0
▁cle	-854.0
▁both	-855.0
▁To	-856.0
▁few	-857.0
▁sub	-858.0
cept	-859.0
▁aut	-860.0
orn	-861.0
meric	-862.0
▁str	-863.0
▁happ	-864.0
▁week	-865.0
▁sign	-866.0
▁open	-867.0
▁hand	-868.0
ved	-869.0
▁gl	-870.0
▁pur	-871.0
▁say	-872.0
uc	-873.0
▁report	-874.0
▁health	-875.0
▁game	-876.0
▁adv	-877.0
att	-878.0
▁rep	-879.0
▁market	-880.0
ital	-881.0
▁different	-882.0
oot	-883.0
ired	-884.0
orth	-885.0
▁frie	-886.0
bers	-887.0
▁keep	-888.0
▁same	-889.0
ering	-890.0
tt	-891.0
▁lot	-892.0
▁Ex	-893.0
▁She	-894.0
▁point	-895.0
▁Col	-896.0
ween	-897.0
▁techn	-898.0
▁family	-899.0
▁ev	-900.0
▁i	-901.0
ology	-902.0
▁exp	-903.0
iqu	-904.0
▁ext	-905.0
▁school	-906.0
ining	-907.0
▁little	-908.0
▁using	-909.0
,"	-910.0
▁process	-911.0
ished	-912.0
atur	-913.0
▁company	-914.0
▁lar	-915.0
ata	-916.0
▁including	-917.0
▁Sc	-918.0
ross	-919.0
iving	-920.0
oh	-921.0
ants	-922.0
▁next	-923.0
▁plan	-924.0
▁win	-925.0
▁Americ	-926.0
ott	-927.0
▁fil	-928.0
▁real	-929.0
▁during	-930.0
▁Tr	-931.0
▁between	-932.0
thing	-933.0
ized	-934.0
▁water	-935.0
ger	-936.0
▁sol	-937.0
▁Ph	-938.0
▁import	-939.0
▁Q	-940.0
ody	-941.0
cent	-942.0
▁state	-943.0
▁What	-944.0
gg	-945.0
ield	-946.0
▁things	-947.0
ik	-948.0
ves	-949.0
▁met	-950.0
arly	-951.0
els	-952.0
▁come	-953.0
aut	-954.0
ists	-955.0
be	-956.0
▁allow	-957.0
▁big	-958.0
less	-959.0
aint	-960.0
reen	-961.0
▁mus	-962.0
▁put	-963.0
▁contin	-964.0
uss	-965.0
▁Or	-966.0
▁rece	-967.0
▁experience	-968.0
ware	-969.0
▁service	-970.0
▁opt	-971.0
▁build	-972.0
cer	-973.0
self	-974.0
▁small	-975.0
▁dri	-976.0
▁days	-977.0
▁appro	-978.0
ined	-979.0
iversity	-980.0
ex	-981.0
▁organ	-982.0
▁full	-983.0
ling	-984.0
▁since	-985.0
▁cent	-986.0
▁always	-987.0
▁rest	-988.0
▁try	-989.0
▁phot	-990.0
▁better	-991.0
▁cr	-992.0
▁sure	-993.0
▁When	-994.0
ution	-995.0
▁pat	-996.0
▁online	-997.0
▁pri	-998.0
▁quest	-999.0
▁ref	-1000.0
▁Ind	-1001.0
▁second	-1002.0
▁pass	-1003.0
▁something	-1004.0
▁var	-1005.0
illion	-1006.0
▁bel	-1007.0
▁interest	-1008.0
rand	-1009.0
ever	-1010.0
over	-1011.0
▁iss	-1012.0
▁partic	-1013.0
▁class	-1014.0
▁poss	-1015.0
▁gener	-1016.0
▁def	-1017.0
▁group	-1018.0
▁tri	-1019.0
▁mov	-1020.0
ffect	-1021.0
▁perform	-1022.0
▁hard	-1023.0
▁direct	-1024.0
▁Z	-1025.0
▁pay	-1026.0
pping	-1027.0
ours	-1028.0
▁With	-1029.0
▁result	-1030.0
▁bro	-1031.0
▁today	-1032.0
▁head	-1033.0
▁special	-1034.0
gy	-1035.0
▁—	-1036.0
▁sl	-1037.0
ps	-1038.0
▁ty	-1039.0
▁ve	-1040.0
ploy	-1041.0
ER	-1042.0
▁At	-1043.0
joy	-1044.0
▁stand	-1045.0
ms	-1046.0
work	-1047.0
ared	-1048.0
outh	-1049.0
▁another	-1050.0
▁ide	-1051.0
▁give	-1052.0
br	-1053.0
▁ann	-1054.0
▁Con	-1055.0
▁wom	-1056.0
▁provide	-1057.0
uck	-1058.0
▁got	-1059.0
▁cor	-1060.0
ccess	-1061.0
ior	-1062.0
▁Chr	-1063.0
ote	-1064.0
oor	-1065.0
▁Res	-1066.0
oney	-1067.0
▁meet	-1068.0
▁students	-1069.0
▁resp	-1070.0
istr	-1071.0
▁current	-1072.0
ense	-1073.0
ately	-1074.0
▁wr	-1075.0
▁without	-1076.0
ision	-1077.0
▁conf	-1078.0
▁Our	-1079.0
ients	-1080.0
rence	-1081.0
ok	-1082.0
ium	-1083.0
▁old	-1084.0
▁area	-1085.0
ley	-1086.0
ope	-1087.0
ards	-1088.0
▁number	-1089.0
▁four	-1090.0
▁bre	-1091.0
▁cost	-1092.0
aj	-1093.0
ems	-1094.0
ered	-1095.0
▁able	-1096.0
ically	-1097.0
▁soc	-1098.0
▁val	-1099.0
▁Sp	-1100.0
▁invest	-1101.0
▁must	-1102.0
con	-1103.0
▁access	-1104.0
▁services	-1105.0
▁unt	-1106.0
raph	-1107.0
ats	-1108.0
ird	-1109.0
▁ask	-1110.0
▁working	-1111.0
▁never	-1112.0
▁US	-1113.0
▁Cent	-1114.0
iver	-1115.0
▁No	-1116.0
stand	-1117.0
ww	-1118.0
▁webs	-1119.0
▁proble	-1120.0
▁public	-1121.0
▁vide	-1122.0
ission	-1123.0
▁visit	-1124.0
▁important	-1125.0
ann	-1126.0
▁light	-1127.0
pped	-1128.0
▁fact	-1129.0
let	-1130.0
▁sal	-1131.0
▁level	-1132.0
▁order	-1133.0
▁fac	-1134.0
ged	-1135.0
▁Comm	-1136.0
▁My	-1137.0
▁test	-1138.0
▁might	-1139.0
▁exc	-1140.0
ral	-1141.0
▁rese	-1142.0
▁product	-1143.0
▁local	-1144.0
▁night	-1145.0
▁season	-1146.0
inal	-1147.0
▁el	-1148.0
▁incre	-1149.0
ember	-1150.0
▁site	-1151.0
rol	-1152.0
▁That	-1153.0
▁sing	-1154.0
ruct	-1155.0
ample	-1156.0
▁expl	-1157.0
▁Mar	-1158.0
▁spec	-1159.0
▁grow	-1160.0
▁let	-1161.0
▁ca	-1162.0
▁proper	-1163.0
▁less	-1164.0
ording	-1165.0
▁enjoy	-1166.0
▁ob	-1167.0
▁past	-1168.0
▁event	-1169.0
▁products	-1170.0
▁Man	-1171.0
▁'	-1172.0
▁inf	-1173.0
▁May	-1174.0
▁looking	-1175.0
▁food	-1176.0
here	-1177.0
lection	-1178.0
▁within	-1179.0
▁profess	-1180.0
▁Fe	-1181.0
▁Is	-1182.0
▁data	-1183.0
▁making	-1184.0
▁pop	-1185.0
ertain	-1186.0
▁until	-1187.0
ases	-1188.0
ories	-1189.0
ffic	-1190.0
enn	-1191.0
ency	-1192.0
▁children	-1193.0
ently	-1194.0
▁University	-1195.0
We	-1196.0
gin	-1197.0
sh	-1198.0
▁job	-1199.0
▁offer	-1200.0
▁law	-1201.0
ery	-1202.0
ains	-1203.0
ney	-1204.0
urs	-1205.0
▁pos	-1206.0
eng	-1207.0
utes	-1208.0
▁power	-1209.0
▁view	-1210.0
▁turn	-1211.0
▁eng	-1212.0
▁email	-1213.0
ential	-1214.0
tend	-1215.0
▁oper	-1216.0
▁sit	-1217.0
▁check	-1218.0
▁against	-1219.0
ieve	-1220.0
▁est	-1221.0
▁Pr	-1222.0
ream	-1223.0
ised	-1224.0
▁Br	-1225.0
ina	-1226.0
▁prote	-1227.0
ids	-1228.0
ode	-1229.0
▁room	-1230.0
▁contact	-1231.0
IN	-1232.0
▁community	-1233.0
med	-1234.0
to	-1235.0
▁addition	-1236.0
▁prom	-1237.0
▁says	-1238.0
▁intern	-1239.0
load	-1240.0
▁toget	-1241.0
▁together	-1242.0
▁Fl	-1243.0
▁away	-1244.0
ivid	-1245.0
▁impro	-1246.0
▁quality	-1247.0
▁leg	-1248.0
ator	-1249.0
▁dist	-1250.0
▁creat	-1251.0
ills	-1252.0
irl	-1253.0
hor	-1254.0
▁indust	-1255.0
▁complete	-1256.0
▁news	-1257.0
aring	-1258.0
iron	-1259.0
ique	-1260.0
ret	-1261.0
▁App	-1262.0
icle	-1263.0
iday	-1264.0
agement	-1265.0
ified	-1266.0
oci	-1267.0
▁supp	-1268.0
osed	-1269.0
ability	-1270.0
▁project	-1271.0
▁website	-1272.0
▁Car	-1273.0
iety	-1274.0
ane	-1275.0
por	-1276.0
!!	-1277.0
▁change	-1278.0
co	-1279.0
▁success	-1280.0
▁dep	-1281.0
bo	-1282.0
▁learn	-1283.0
▁include	-1284.0
▁Co	-1285.0
pend	-1286.0
▁fav	-1287.0
▁chang	-1288.0
ym	-1289.0
▁Ste	-1290.0
▁detail	-1291.0
ism	-1292.0
▁offic	-1293.0
▁Can	-1294.0
▁members	-1295.0
▁dr	-1296.0
arent	-1297.0
son	-1298.0
▁buy	-1299.0
▁easy	-1300.0
▁please	-1301.0
rap	-1302.0
▁Me	-1303.0
aster	-1304.0
▁applic	-1305.0
ising	-1306.0
ury	-1307.0
▁name	-1308.0
▁pract	-1309.0
▁times	-1310.0
atures	-1311.0
▁along	-1312.0
▁equ	-1313.0
▁present	-1314.0
▁One	-1315.0
▁large	-1316.0
▁money	-1317.0
▁beaut	-1318.0
atter	-1319.0
augh	-1320.0
▁Am	-1321.0
aterial	-1322.0
the	-1323.0
▁Cont	-1324.0
iting	-1325.0
▁activ	-1326.0
vern	-1327.0
RE	-1328.0
▁employ	-1329.0
▁la	-1330.0
aff	-1331.0
une	-1332.0
▁house	-1333.0
ready	-1334.0
Th	-1335.0
▁course	-1336.0
▁expect	-1337.0
▁.	-1338.0
▁needs	-1339.0
ored	-1340.0
▁air	-1341.0
▁left	-1342.0
▁Christ	-1343.0
▁thing	-1344.0
itions	-1345.0
ift	-1346.0
sc	-1347.0
ably	-1348.0
▁cap	-1349.0
ider	-1350.0
ived	-1351.0
lish	-1352.0
▁music	-1353.0
▁dra	-1354.0
min	-1355.0
▁why	-1356.0
▁En	-1357.0
yle	-1358.0
ohn	-1359.0
ump	-1360.0
ify	-1361.0
▁hist	-1362.0
ec	-1363.0
ron	-1364.0
by	-1365.0
▁bas	-1366.0
ern	-1367.0
▁hum	-1368.0
▁video	-1369.0
rie	-1370.0
▁sw	-1371.0
▁account	-1372.0
ON	-1373.0
ffe	-1374.0
alf	-1375.0
ocus	-1376.0
veral	-1377.0
▁below	-1378.0
▁soft	-1379.0
▁hot	-1380.0
▁These	-1381.0
▁short	-1382.0
ries	-1383.0
▁Eng	-1384.0
▁line	-1385.0
▁live	-1386.0
pecial	-1387.0
▁opport	-1388.0
enef	-1389.0
▁create	-1390.0
book	-1391.0
▁cond	-1392.0
▁beh	-1393.0
▁...	-1394.0
▁perfect	-1395.0
uly	-1396.0
▁ce	-1397.0
▁page	-1398.0
▁word	-1399.0
▁/	-1400.0
▁writ	-1401.0
AT	-1402.0
▁dem	-1403.0
ots	-1404.0
▁Med	-1405.0
▁mar	-1406.0
▁Please	-1407.0
fort	-1408.0
side	-1409.0
ows	-1410.0
mber	-1411.0
▁govern	-1412.0
▁pa	-1413.0
artment	-1414.0
▁already	-1415.0
▁Che	-1416.0
▁kind	-1417.0
▁After	-1418.0
▁enough	-1419.0
▁ever	-1420.0
▁research	-1421.0
ured	-1422.0
▁makes	-1423.0
▁following	-1424.0
▁million	-1425.0
▁Do	-1426.0
▁review	-1427.0
▁getting	-1428.0
▁dev	-1429.0
ten	-1430.0
itive	-1431.0
ush	-1432.0
▁friends	-1433.0
▁cut	-1434.0
▁conne	-1435.0
▁trad	-1436.0
ee	-1437.0
.,	-1438.0
▁record	-1439.0
room	-1440.0
▁treat	-1441.0
▁side	-1442.0
▁const	-1443.0
vious	-1444.0
▁Ass	-1445.0
▁case	-1446.0
▁having	-1447.0
ajor	-1448.0
▁tell	-1449.0
▁Count	-1450.0
▁personal	-1451.0
▁move	-1452.0
▁based	-1453.0
▁story	-1454.0
viron	-1455.0
ention	-1456.0
▁John	-1457.0
rop	-1458.0
▁Your	-1459.0
▁Serv	-1460.0
▁won	-1461.0
unch	-1462.0
ips	-1463.0
▁Des	-1464.0
▁minutes	-1465.0
uper	-1466.0
▁become	-1467.0
uture	-1468.0
▁possible	-1469.0
osp	-1470.0
oice	-1471.0
iam	-1472.0
▁talk	-1473.0
▁city	-1474.0
ights	-1475.0
▁across	-1476.0
▁vers	-1477.0
▁share	-1478.0
ization	-1479.0
▁done	-1480.0
▁bit	-1481.0
▁camp	-1482.0
▁pack	-1483.0
▁didn	-1484.0
▁comes	-1485.0
▁men	-1486.0
▁understand	-1487.0
ead	-1488.0
▁several	-1489.0
▁--	-1490.0
yn	-1491.0
▁:	-1492.0
▁country	-1493.0
▁Tw	-1494.0
▁hours	-1495.0
▁effect	-1496.0
▁cou	-1497.0
▁purch	-1498.0
iven	-1499.0
▁benef	-1500.0
ES	-1501.0
▁mil	-1502.0
▁women	-1503.0
uff	-1504.0
▁net	-1505.0
ividual	-1506.0
app	-1507.0
aces	-1508.0
▁percent	-1509.0
▁Comp	-1510.0
▁educ	-1511.0
wards	-1512.0
▁focus	-1513.0
▁often	-1514.0
▁material	-1515.0
ball	-1516.0
▁social	-1517.0
aim	-1518.0
▁elect	-1519.0
▁Wor	-1520.0
idd	-1521.0
ances	-1522.0
ination	-1523.0
uro	-1524.0
ides	-1525.0
ober	-1526.0
▁quick	-1527.0
▁Not	-1528.0
▁development	-1529.0
▁es	-1530.0
▁bring	-1531.0
▁return	-1532.0
orts	-1533.0
▁American	-1534.0
ister	-1535.0
ienc	-1536.0
▁doing	-1537.0
▁Bro	-1538.0
▁School	-1539.0
ript	-1540.0
▁pie	-1541.0
▁X	-1542.0
▁far	-1543.0
▁hold	-1544.0
arl	-1545.0
▁mult	-1546.0
ted	-1547.0
▁body	-1548.0
arr	-1549.0
err	-1550.0
▁Gr	-1551.0
of	-1552.0
mend	-1553.0
▁pot	-1554.0
ference	-1555.0
iful	-1556.0
ones	-1557.0
AN	-1558.0
▁wa	-1559.0
ners	-1560.0
▁fund	-1561.0
▁took	-1562.0
ograph	-1563.0
▁Here	-1564.0
▁tre	-1565.0
ource	-1566.0
lished	-1567.0
▁blog	-1568.0
oose	-1569.0
itc	-1570.0
AR	-1571.0
▁State	-1572.0
▁doesn	-1573.0
reet	-1574.0
conom	-1575.0
▁jo	-1576.0
vironment	-1577.0
▁deal	-1578.0
lement	-1579.0
▁others	-1580.0
▁City	-1581.0
▁Rep	-1582.0
▁came	-1583.0
▁called	-1584.0
▁started	-1585.0
▁sum	-1586.0
▁rele	-1587.0
org	-1588.0
▁Inst	-1589.0
nder	-1590.0
▁least	-1591.0
▁months	-1592.0
▁Intern	-1593.0
▁space	-1594.0
acy	-1595.0
▁Gu	-1596.0
▁mom	-1597.0
▁future	-1598.0
▁orig	-1599.0
▁compet	-1600.0
▁individual	-1601.0
oon	-1602.0
lege	-1603.0
▁went	-1604.0
▁occ	-1605.0
▁yet	-1606.0
▁young	-1607.0
rodu	-1608.0
▁clean	-1609.0
▁non	-1610.0
▁mind	-1611.0
▁told	-1612.0
ai	-1613.0
▁five	-1614.0
▁early	-1615.0
▁series	-1616.0
▁control	-1617.0
af	-1618.0
utions	-1619.0
▁term	-1620.0
▁major	-1621.0
oll	-1622.0
hers	-1623.0
ille	-1624.0
ape	-1625.0
▁games	-1626.0
ained	-1627.0
▁comb	-1628.0
▁means	-1629.0
▁pict	-1630.0
▁industry	-1631.0
▁chall	-1632.0
yl	-1633.0
▁tool	-1634.0
anks	-1635.0
▁Min	-1636.0
▁ens	-1637.0
▁lim	-1638.0
▁cover	-1639.0
ctor	-1640.0
▁fore	-1641.0
▁ago	-1642.0
AS	-1643.0
▁low	-1644.0
sw	-1645.0
▁key	-1646.0
fer	-1647.0
ama	-1648.0
▁x	-1649.0
▁heart	-1650.0
▁features	-1651.0
▁Ed	-1652.0
ilt	-1653.0
▁tem	-1654.0
rew	-1655.0
▁price	-1656.0
unic	-1657.0
▁store	-1658.0
fact	-1659.0
jects	-1660.0
▁offers	-1661.0
▁Ab	-1662.0
itor	-1663.0
back	-1664.0
▁once	-1665.0
▁specific	-1666.0
come	-1667.0
▁range	-1668.0
▁thought	-1669.0
ges	-1670.0
urity	-1671.0
ither	-1672.0
ateg	-1673.0
▁Bo	-1674.0
▁Jan	-1675.0
sel	-1676.0
▁pick	-1677.0
illed	-1678.0
▁Now	-1679.0
eral	-1680.0
▁God	-1681.0
▁Dr	-1682.0
▁favor	-1683.0
▁appear	-1684.0
year	-1685.0
▁More	-1686.0
▁York	-1687.0
ilities	-1688.0
▁Ke	-1689.0
▁Im	-1690.0
▁hope	-1691.0
▁redu	-1692.0
▁discuss	-1693.0
OR	-1694.0
ibr	-1695.0
▁happen	-1696.0
▁require	-1697.0
yr	-1698.0
▁Pe	-1699.0
▁However	-1700.0
atic	-1701.0
It	-1702.0
▁mean	-1703.0
▁single	-1704.0
nes	-1705.0
▁step	-1706.0
▁close	-1707.0
▁upd	-1708.0
▁land	-1709.0
▁break	-1710.0
▁ey	-1711.0
▁main	-1712.0
▁invol	-1713.0
most	-1714.0
anies	-1715.0
▁Pres	-1716.0
ourn	-1717.0
▁stay	-1718.0
▁government	-1719.0
▁Em	-1720.0
isk	-1721.0
isc	-1722.0
//	-1723.0
▁Sm	-1724.0
ony	-1725.0
▁field	-1726.0
de	-1727.0
▁priv	-1728.0
▁United	-1729.0
▁beautiful	-1730.0
resh	-1731.0
cle	-1732.0
▁Per	-1733.0
▁friend	-1734.0
▁everything	-1735.0
▁Qu	-1736.0
▁walk	-1737.0
ched	-1738.0
▁questions	-1739.0
▁added	-1740.0
▁hig	-1741.0
▁Cal	-1742.0
▁tax	-1743.0
aken	-1744.0
▁customers	-1745.0
▁strong	-1746.0
now	-1747.0
▁taking	-1748.0
▁install	-1749.0
for	-1750.0
://	-1751.0
aps	-1752.0
ging	-1753.0
▁Pol	-1754.0
▁charact	-1755.0
▁wond	-1756.0
▁South	-1757.0
▁begin	-1758.0
▁study	-1759.0
ources	-1760.0
▁North	-1761.0
▁Just	-1762.0
▁announ	-1763.0
ief	-1764.0
ensive	-1765.0
▁miss	-1766.0
▁recom	-1767.0
▁travel	-1768.0
▁certain	-1769.0
▁Park	-1770.0
▁address	-1771.0
▁problem	-1772.0
▁By	-1773.0
▁County	-1774.0
▁actually	-1775.0
play	-1776.0
▁staff	-1777.0
▁tot	-1778.0
▁half	-1779.0
▁mess	-1780.0
▁z	-1781.0
aur	-1782.0
ew	-1783.0
inc	-1784.0
ians	-1785.0
▁search	-1786.0
▁technology	-1787.0
▁girl	-1788.0
▁media	-1789.0
urther	-1790.0
time	-1791.0
▁watch	-1792.0
▁typ	-1793.0
▁known	-1794.0
▁official	-1795.0
▁manag	-1796.0
▁National	-1797.0
▁six	-1798.0
irm	-1799.0
▁Pre	-1800.0
▁wind	-1801.0
▁enc	-1802.0
gle	-1803.0
atural	-1804.0
ural	-1805.0
▁front	-1806.0
ublic	-1807.0
▁Add	-1808.0
▁sound	-1809.0
▁improve	-1810.0
▁Post	-1811.0
wh	-1812.0
▁dig	-1813.0
irt	-1814.0
▁lat	-1815.0
▁content	-1816.0
▁Su	-1817.0
▁Stud	-1818.0
▁anal	-1819.0
▁track	-1820.0
itted	-1821.0
▁Mc	-1822.0
▁face	-1823.0
▁training	-1824.0
▁link	-1825.0
▁click	-1826.0
icy	-1827.0
▁ste	-1828.0
▁web	-1829.0
▁someone	-1830.0
ison	-1831.0
▁Oct	-1832.0
arning	-1833.0
▁works	-1834.0
▁author	-1835.0
▁later	-1836.0
▁building	-1837.0
not	-1838.0
lebr	-1839.0
▁host	-1840.0
ocu	-1841.0
▁Gl	-1842.0
▁environment	-1843.0
abor	-1844.0
cted	-1845.0
▁Center	-1846.0
▁mor	-1847.0
▁log	-1848.0
▁unique	-1849.0
▁everyone	-1850.0
▁Reg	-1851.0
raft	-1852.0
▁port	-1853.0
▁provides	-1854.0
IS	-1855.0
gest	-1856.0
▁ener	-1857.0
▁fall	-1858.0
▁cred	-1859.0
▁seen	-1860.0
▁Dep	-1861.0
▁film	-1862.0
ask	-1863.0
▁Day	-1864.0
▁prep	-1865.0
▁oil	-1866.0
▁particular	-1867.0
▁professional	-1868.0
▁aud	-1869.0
fully	-1870.0
▁Aug	-1871.0
▁Euro	-1872.0
ests	-1873.0
▁particip	-1874.0
lex	-1875.0
ided	-1876.0
unities	-1877.0
▁bar	-1878.0
ibility	-1879.0
▁results	-1880.0
▁ident	-1881.0
▁recommend	-1882.0
roll	-1883.0
▁press	-1884.0
ED	-1885.0
▁card	-1886.0
▁While	-1887.0
▁Will	-1888.0
▁whole	-1889.0
▁Don	-1890.0
aturday	-1891.0
▁World	-1892.0
rain	-1893.0
▁companies	-1894.0
ino	-1895.0
▁Ge	-1896.0
▁High	-1897.0
urch	-1898.0
▁Friday	-1899.0
▁office	-1900.0
IT	-1901.0
pper	-1902.0
▁Bar	-1903.0
▁March	-1904.0
▁color	-1905.0
▁events	-1906.0
▁anything	-1907.0
▁issues	-1908.0
EN	-1909.0
ancial	-1910.0
▁mot	-1911.0
▁eff	-1912.0
▁prob	-1913.0
▁mag	-1914.0
▁areas	-1915.0
▁pret	-1916.0
resent	-1917.0
▁vol	-1918.0
▁Some	-1919.0
▁comput	-1920.0
▁respons	-1921.0
ops	-1922.0
▁points	-1923.0
▁Acc	-1924.0
▁performance	-1925.0
▁near	-1926.0
▁pain	-1927.0
ster	-1928.0
obile	-1929.0
▁red	-1930.0
▁print	-1931.0
▁cook	-1932.0
▁Apr	-1933.0
itch	-1934.0
umb	-1935.0
▁given	-1936.0
▁history	-1937.0
▁econom	-1938.0
pecially	-1939.0
crib	-1940.0
obal	-1941.0
....	-1942.0
▁feature	-1943.0
go	-1944.0
ili	-1945.0
ands	-1946.0
▁sell	-1947.0
▁designed	-1948.0
▁above	-1949.0
ches	-1950.0
▁maint	-1951.0
▁skin	-1952.0
▁text	-1953.0
▁aff	-1954.0
▁simple	-1955.0
eth	-1956.0
▁assist	-1957.0
IC	-1958.0
my	-1959.0
ued	-1960.0
▁age	-1961.0
icult	-1962.0
▁reason	-1963.0
inks	-1964.0
In	-1965.0
▁size	-1966.0
▁question	-1967.0
▁dou	-1968.0
imate	-1969.0
▁according	-1970.0
▁repl	-1971.0
iod	-1972.0
ply	-1973.0
▁Sec	-1974.0
nding	-1975.0
▁black	-1976.0
▁Aust	-1977.0
head	-1978.0
▁htt	-1979.0
edd	-1980.0
▁pretty	-1981.0
▁foot	-1982.0
▁believe	-1983.0
▁Saturday	-1984.0
oved	-1985.0
ables	-1986.0
▁due	-1987.0
▁Part	-1988.0
▁among	-1989.0
▁select	-1990.0
AL	-1991.0
itter	-1992.0
▁Sund	-1993.0
▁fire	-1994.0
cript	-1995.0
▁phys	-1996.0
omes	-1997.0
ental	-1998.0
ledge	-1999.0
▁idea	-2000.0
ety	-2001.0
▁latest	-2002.0
▁details	-2003.0
▁ant	-2004.0
▁popular	-2005.0
ole	-2006.0
▁third	-2007.0
▁et	-2008.0
ators	-2009.0
▁Mr	-2010.0
pro	-2011.0
val	-2012.0
▁management	-2013.0
aining	-2014.0
itional	-2015.0
▁includes	-2016.0
ruction	-2017.0
asing	-2018.0
▁July	-2019.0
▁energy	-2020.0
▁items	-2021.0
ze	-2022.0
▁weeks	-2023.0
ouch	-2024.0
onday	-2025.0
▁sent	-2026.0
▁Feb	-2027.0
▁living	-2028.0
ites	-2029.0
▁cult	-2030.0
▁receive	-2031.0
▁fre	-2032.0
▁continue	-2033.0
▁bad	-2034.0
▁June	-2035.0
▁relations	-2036.0
▁Europe	-2037.0
vert	-2038.0
astic	-2039.0
idence	-2040.0
▁human	-2041.0
▁parent	-2042.0
ulation	-2043.0
▁Val	-2044.0
▁His	-2045.0
▁claim	-2046.0
aily	-2047.0
▁Sept	-2048.0
ufact	-2049.0
ctions	-2050.0
elt	-2051.0
▁Dav	-2052.0
▁sex	-2053.0
▁prop	-2054.0
▁soon	-2055.0
ung	-2056.0
▁property	-2057.0
▁hon	-2058.0
nov	-2059.0
▁currently	-2060.0
▁amount	-2061.0
▁entire	-2062.0
new	-2063.0
▁West	-2064.0
uation	-2065.0
▁coming	-2066.0
ese	-2067.0
though	-2068.0
ana	-2069.0
ogn	-2070.0
▁Off	-2071.0
▁kids	-2072.0
▁TH	-2073.0
▁Tra	-2074.0
▁From	-2075.0
itting	-2076.0
▁phone	-2077.0
This	-2078.0
cast	-2079.0
▁final	-2080.0
▁consum	-2081.0
▁ess	-2082.0
▁happy	-2083.0
▁taken	-2084.0
▁celebr	-2085.0
▁docu	-2086.0
▁member	-2087.0
icro	-2088.0
.)	-2089.0
▁answ	-2090.0
▁meas	-2091.0
AC	-2092.0
▁wanted	-2093.0
▁type	-2094.0
▁software	-2095.0
selves	-2096.0
▁experienc	-2097.0
▁forward	-2098.0
▁diff	-2099.0
eds	-2100.0
▁whether	-2101.0
▁Us	-2102.0
▁wide	-2103.0
▁Read	-2104.0
▁either	-2105.0
▁Bu	-2106.0
ires	-2107.0
▁El	-2108.0
▁value	-2109.0
▁concer	-2110.0
▁deb	-2111.0
▁further	-2112.0
ux	-2113.0
ilar	-2114.0
ival	-2115.0
▁isn	-2116.0
▁coll	-2117.0
used	-2118.0
ams	-2119.0
aced	-2120.0
▁par	-2121.0
▁almost	-2122.0
▁required	-2123.0
▁crit	-2124.0
▁held	-2125.0
▁white	-2126.0
arter	-2127.0
▁date	-2128.0
▁comfort	-2129.0
▁quite	-2130.0
▁trying	-2131.0
▁provided	-2132.0
▁summer	-2133.0
▁Sw	-2134.0
▁fit	-2135.0
▁Pa	-2136.0
▁sugg	-2137.0
▁needed	-2138.0
▁favorite	-2139.0
▁tit	-2140.0
St	-2141.0
ees	-2142.0
▁Sunday	-2143.0
▁opportunity	-2144.0
▁Jo	-2145.0
▁ach	-2146.0
aching	-2147.0
uary	-2148.0
ek	-2149.0
▁Cor	-2150.0
▁via	-2151.0
▁extra	-2152.0
▁players	-2153.0
▁April	-2154.0
▁books	-2155.0
▁Monday	-2156.0
▁network	-2157.0
▁cop	-2158.0
amer	-2159.0
ler	-2160.0
▁example	-2161.0
▁box	-2162.0
▁users	-2163.0
▁,	-2164.0
itten	-2165.0
▁seem	-2166.0
▁period	-2167.0
▁various	-2168.0
▁Health	-2169.0
▁options	-2170.0
where	-2171.0
▁running	-2172.0
gress	-2173.0
▁style	-2174.0
▁especially	-2175.0
▁consider	-2176.0
▁yourself	-2177.0
▁Art	-2178.0
▁dam	-2179.0
▁safe	-2180.0
▁previous	-2181.0
▁swe	-2182.0
▁ways	-2183.0
▁version	-2184.0
▁created	-2185.0
▁sle	-2186.0
▁Mon	-2187.0
▁recently	-2188.0
▁potential	-2189.0
OU	-2190.0
▁issue	-2191.0
▁common	-2192.0
ises	-2193.0
▁di	-2194.0
▁Inc	-2195.0
▁stri	-2196.0
▁ready	-2197.0
▁attend	-2198.0
▁morning	-2199.0
▁regular	-2200.0
▁insp	-2201.0
▁else	-2202.0
▁road	-2203.0
▁nice	-2204.0
▁throughout	-2205.0
▁probably	-2206.0
▁ensure	-2207.0
--	-2208.0
▁veh	-2209.0
▁received	-2210.0
earch	-2211.0
▁ball	-2212.0
▁Associ	-2213.0
▁President	-2214.0
▁clear	-2215.0
▁download	-2216.0
par	-2217.0
icles	-2218.0
▁engine	-2219.0
▁sho	-2220.0
erc	-2221.0
▁song	-2222.0
azing	-2223.0
▁lo	-2224.0
▁brand	-2225.0
▁relationship	-2226.0
▁takes	-2227.0
▁reading	-2228.0
mit	-2229.0
▁natural	-2230.0
▁Aut	-2231.0
▁States	-2232.0
ades	-2233.0
amed	-2234.0
▁park	-2235.0
▁House	-2236.0
ively	-2237.0
▁shows	-2238.0
▁asked	-2239.0
▁medical	-2240.0
istration	-2241.0
ague	-2242.0
▁inj	-2243.0
▁hit	-2244.0
▁choose	-2245.0
▁collect	-2246.0
▁Direct	-2247.0
▁Mich	-2248.0
▁original	-2249.0
▁cool	-2250.0
▁spr	-2251.0
▁couple	-2252.0
angu	-2253.0
reme	-2254.0
ipping	-2255.0
▁represent	-2256.0
▁bott	-2257.0
▁init	-2258.0
▁release	-2259.0
▁goal	-2260.0
▁behind	-2261.0
ny	-2262.0
apt	-2263.0
oid	-2264.0
▁Face	-2265.0
▁wonder	-2266.0
▁Soc	-2267.0
▁recent	-2268.0
▁sales	-2269.0
eter	-2270.0
▁clients	-2271.0
▁financial	-2272.0
aging	-2273.0
overed	-2274.0
▁accom	-2275.0
▁fresh	-2276.0
▁fast	-2277.0
▁super	-2278.0
▁leave	-2279.0
▁problems	-2280.0
▁anyone	-2281.0
▁role	-2282.0
face	-2283.0
▁Get	-2284.0
gs	-2285.0
hib	-2286.0
▁Ser	-2287.0
▁career	-2288.0
uge	-2289.0
▁Fin	-2290.0
bor	-2291.0
▁Black	-2292.0
ume	-2293.0
▁cup	-2294.0
ried	-2295.0
ville	-2296.0
▁model	-2297.0
▁article	-2298.0
oura	-2299.0
▁ful	-2300.0
uesday	-2301.0
▁meth	-2302.0
arth	-2303.0
▁ground	-2304.0
▁programs	-2305.0
▁Up	-2306.0
▁hol	-2307.0
▁fail	-2308.0
na	-2309.0
▁sun	-2310.0
aving	-2311.0
▁weeke	-2312.0
▁accept	-2313.0
▁flow	-2314.0
ada	-2315.0
ursday	-2316.0
▁base	-2317.0
medi	-2318.0
▁customer	-2319.0
▁difficult	-2320.0
OT	-2321.0
atform	-2322.0
▁writing	-2323.0
anced	-2324.0
urance	-2325.0
▁looks	-2326.0
▁PM	-2327.0
▁tour	-2328.0
▁polit	-2329.0
▁likely	-2330.0
ox	-2331.0
hel	-2332.0
oogle	-2333.0
▁paper	-2334.0
▁ap	-2335.0
▁abs	-2336.0
▁simply	-2337.0
cing	-2338.0
name	-2339.0
verage	-2340.0
▁inside	-2341.0
▁manufact	-2342.0
▁TV	-2343.0
clus	-2344.0
▁etc	-2345.0
▁mix	-2346.0
▁total	-2347.0
▁included	-2348.0
▁po	-2349.0
idge	-2350.0
ming	-2351.0
▁Int	-2352.0
▁risk	-2353.0
▁Wed	-2354.0
adem	-2355.0
aker	-2356.0
▁increase	-2357.0
▁party	-2358.0
▁changes	-2359.0
▁ele	-2360.0
ashing	-2361.0
▁board	-2362.0
▁education	-2363.0
oud	-2364.0
▁Her	-2365.0
▁October	-2366.0
▁action	-2367.0
▁former	-2368.0
▁meeting	-2369.0
Wh	-2370.0
▁however	-2371.0
▁News	-2372.0
▁outside	-2373.0
ification	-2374.0
uit	-2375.0
iple	-2376.0
▁match	-2377.0
▁Ac	-2378.0
▁America	-2379.0
▁Act	-2380.0
▁nothing	-2381.0
▁security	-2382.0
▁self	-2383.0
ground	-2384.0
▁contrib	-2385.0
▁stop	-2386.0
ester	-2387.0
▁town	-2388.0
▁August	-2389.0
▁matter	-2390.0
▁position	-2391.0
▁Af	-2392.0
▁ple	-2393.0
▁bed	-2394.0
▁late	-2395.0
istrict	-2396.0
▁Ob	-2397.0
▁systems	-2398.0
▁Every	-2399.0
icated	-2400.0
adu	-2401.0
ules	-2402.0
▁Bus	-2403.0
▁words	-2404.0
▁playing	-2405.0
▁cir	-2406.0
▁pan	-2407.0
ST	-2408.0
▁UK	-2409.0
wood	-2410.0
▁sat	-2411.0
▁impact	-2412.0
▁anim	-2413.0
▁mark	-2414.0
▁private	-2415.0
▁application	-2416.0
▁police	-2417.0
▁knowledge	-2418.0
▁exist	-2419.0
▁photos	-2420.0
▁method	-2421.0
▁longer	-2422.0
▁coun	-2423.0
▁worked	-2424.0
iddle	-2425.0
▁national	-2426.0
▁projects	-2427.0
ederal	-2428.0
▁ord	-2429.0
▁Are	-2430.0
▁necess	-2431.0
ude	-2432.0
▁table	-2433.0
▁stra	-2434.0
off	-2435.0
▁Ag	-2436.0
empt	-2437.0
elcome	-2438.0
▁September	-2439.0
ecut	-2440.0
▁activities	-2441.0
▁worth	-2442.0
▁recogn	-2443.0
▁production	-2444.0
str	-2445.0
nesday	-2446.0
▁Department	-2447.0
based	-2448.0
aby	-2449.0
iff	-2450.0
▁comment	-2451.0
▁compl	-2452.0
▁skills	-2453.0
▁true	-2454.0
▁general	-2455.0
▁Austral	-2456.0
▁January	-2457.0
iol	-2458.0
▁round	-2459.0
▁lives	-2460.0
▁learning	-2461.0
▁Tuesday	-2462.0
▁Thursday	-2463.0
ID	-2464.0
che	-2465.0
▁Then	-2466.0
▁introdu	-2467.0
ky	-2468.0
arden	-2469.0
▁signific	-2470.0
ING	-2471.0
oom	-2472.0
▁Sal	-2473.0
▁ill	-2474.0
▁student	-2475.0
▁Pat	-2476.0
▁lay	-2477.0
▁hair	-2478.0
▁Free	-2479.0
▁Nove	-2480.0
▁computer	-2481.0
▁squ	-2482.0
▁purchase	-2483.0
▁tal	-2484.0
ham	-2485.0
▁Also	-2486.0
ession	-2487.0
ett	-2488.0
▁Mus	-2489.0
▁death	-2490.0
▁defin	-2491.0
▁seems	-2492.0
▁Of	-2493.0
ci	-2494.0
▁hands	-2495.0
izing	-2496.0
▁communic	-2497.0
mon	-2498.0
▁rad	-2499.0
▁choice	-2500.0
▁screen	-2501.0
AM	-2502.0
▁draw	-2503.0
▁concern	-2504.0
▁leading	-2505.0
▁additional	-2506.0
▁First	-2507.0
▁rights	-2508.0
attle	-2509.0
▁cell	-2510.0
▁credit	-2511.0
▁located	-2512.0
▁variety	-2513.0
▁leaders	-2514.0
▁Facebook	-2515.0
▁stat	-2516.0
▁tick	-2517.0
▁drive	-2518.0
▁movie	-2519.0
▁San	-2520.0
arget	-2521.0
oring	-2522.0
▁file	-2523.0
▁fig	-2524.0
ipment	-2525.0
▁hy	-2526.0
▁bud	-2527.0
▁image	-2528.0
▁determ	-2529.0
▁amazing	-2530.0
aign	-2531.0
▁Sim	-2532.0
▁suggest	-2533.0
mercial	-2534.0
▁chance	-2535.0
▁Red	-2536.0
▁associ	-2537.0
▁rather	-2538.0
▁practice	-2539.0
▁built	-2540.0
▁plans	-2541.0
▁function	-2542.0
oph	-2543.0
▁Har	-2544.0
▁providing	-2545.0
iter	-2546.0
▁cal	-2547.0
ached	-2548.0
airs	-2549.0
light	-2550.0
ought	-2551.0
urg	-2552.0
pm	-2553.0
▁War	-2554.0
▁vict	-2555.0
▁court	-2556.0
▁aw	-2557.0
▁saf	-2558.0
▁cand	-2559.0
example	-2560.0
▁Out	-2561.0
▁touch	-2562.0
▁Air	-2563.0
▁teac	-2564.0
cil	-2565.0
▁exam	-2566.0
▁autom	-2567.0
▁Street	-2568.0
▁international	-2569.0
▁loss	-2570.0
▁weekend	-2571.0
▁Wind	-2572.0
▁infl	-2573.0
▁prior	-2574.0
▁prevent	-2575.0
▁allows	-2576.0
▁arri	-2577.0
▁Calif	-2578.0
▁Click	-2579.0
irth	-2580.0
ibrary	-2581.0
▁character	-2582.0
▁piece	-2583.0
▁treatment	-2584.0
cember	-2585.0
itchen	-2586.0
olution	-2587.0
▁http	-2588.0
ma	-2589.0
▁similar	-2590.0
▁Most	-2591.0
▁moment	-2592.0
gar	-2593.0
oke	-2594.0
ruary	-2595.0
▁clos	-2596.0
▁Design	-2597.0
▁investig	-2598.0
▁rate	-2599.0
▁AM	-2600.0
reg	-2601.0
▁commit	-2602.0
▁growth	-2603.0
imum	-2604.0
▁norm	-2605.0
OM	-2606.0
iber	-2607.0
▁Dis	-2608.0
ivery	-2609.0
▁estab	-2610.0
▁cause	-2611.0
▁user	-2612.0
sp	-2613.0
▁deg	-2614.0
▁lost	-2615.0
▁display	-2616.0
▁collection	-2617.0
▁myself	-2618.0
▁Cr	-2619.0
▁op	-2620.0
▁enter	-2621.0
▁Wednesday	-2622.0
unt	-2623.0
▁rout	-2624.0
ault	-2625.0
▁decided	-2626.0
▁decision	-2627.0
▁sil	-2628.0
▁inde	-2629.0
▁Any	-2630.0
▁higher	-2631.0
cy	-2632.0
▁bal	-2633.0
▁daily	-2634.0
ha	-2635.0
ournal	-2636.0
▁digital	-2637.0
▁November	-2638.0
▁purp	-2639.0
▁Group	-2640.0
▁released	-2641.0
▁significant	-2642.0
▁reported	-2643.0
LE	-2644.0
▁Home	-2645.0
▁woman	-2646.0
▁Cour	-2647.0
▁easily	-2648.0
▁cannot	-2649.0
▁goes	-2650.0
▁International	-2651.0
▁excell	-2652.0
lin	-2653.0
▁wall	-2654.0
▁Thanks	-2655.0
▁quickly	-2656.0
▁College	-2657.0
▁usually	-2658.0
amb	-2659.0
▁bag	-2660.0
▁apply	-2661.0
▁floor	-2662.0
▁expected	-2663.0
iant	-2664.0
▁involved	-2665.0
▁Law	-2666.0
▁dom	-2667.0
▁attack	-2668.0
just	-2669.0
▁boy	-2670.0
illing	-2671.0
▁regard	-2672.0
▁platform	-2673.0
▁capt	-2674.0
▁iP	-2675.0
▁Net	-2676.0
▁encoura	-2677.0
▁protect	-2678.0
ondon	-2679.0
▁Cons	-2680.0
▁agree	-2681.0
ael	-2682.0
▁serious	-2683.0
▁December	-2684.0
▁safety	-2685.0
▁roll	-2686.0
▁saw	-2687.0
▁dress	-2688.0
▁Google	-2689.0
▁gen	-2690.0
▁parents	-2691.0
▁mach	-2692.0
idents	-2693.0
▁played	-2694.0
▁Service	-2695.0
▁immedi	-2696.0
▁surpr	-2697.0
mas	-2698.0
▁warm	-2699.0
zz	-2700.0
▁integr	-2701.0
▁mobile	-2702.0
▁tast	-2703.0
ica	-2704.0
▁February	-2705.0
▁sn	-2706.0
▁club	-2707.0
▁langu	-2708.0
▁president	-2709.0
▁sche	-2710.0
▁related	-2711.0
hern	-2712.0
▁shoot	-2713.0
▁finish	-2714.0
▁ideas	-2715.0
▁global	-2716.0
▁marketing	-2717.0
▁tools	-2718.0
▁ep	-2719.0
▁expert	-2720.0
band	-2721.0
▁code	-2722.0
▁exact	-2723.0
ospital	-2724.0
asons	-2725.0
▁mass	-2726.0
▁note	-2727.0
avy	-2728.0
▁photo	-2729.0
izes	-2730.0
▁save	-2731.0
▁source	-2732.0
▁ut	-2733.0
▁option	-2734.0
▁respect	-2735.0
▁Brit	-2736.0
▁Let	-2737.0
▁feed	-2738.0
enge	-2739.0
iding	-2740.0
▁arch	-2741.0
▁deep	-2742.0
▁corre	-2743.0
▁Ang	-2744.0
▁announced	-2745.0
ilies	-2746.0
▁appe	-2747.0
edding	-2748.0
▁Well	-2749.0
cription	-2750.0
▁La	-2751.0
www	-2752.0
hood	-2753.0
reng	-2754.0
▁stock	-2755.0
▁sens	-2756.0
▁admin	-2757.0
▁location	-2758.0
▁ri	-2759.0
ellow	-2760.0
▁gets	-2761.0
▁David	-2762.0
▁costs	-2763.0
▁helps	-2764.0
▁Av	-2765.0
ples	-2766.0
▁materials	-2767.0
ength	-2768.0
▁Je	-2769.0
ipe	-2770.0
rab	-2771.0
▁Tex	-2772.0
▁huge	-2773.0
▁published	-2774.0
agn	-2775.0
like	-2776.0
AP	-2777.0
▁send	-2778.0
▁mother	-2779.0
▁benefits	-2780.0
▁English	-2781.0
enior	-2782.0
mission	-2783.0
ography	-2784.0
▁lab	-2785.0
oday	-2786.0
▁Play	-2787.0
▁fight	-2788.0
▁Over	-2789.0
▁hear	-2790.0
▁weight	-2791.0
rown	-2792.0
▁Spr	-2793.0
ornia	-2794.0
uel	-2795.0
vey	-2796.0
iction	-2797.0
▁images	-2798.0
rought	-2799.0
▁restaur	-2800.0
key	-2801.0
▁gar	-2802.0
▁Book	-2803.0
▁earn	-2804.0
ald	-2805.0
▁ability	-2806.0
▁interview	-2807.0
add	-2808.0
▁Check	-2809.0
▁Business	-2810.0
atory	-2811.0
▁London	-2812.0
ructure	-2813.0
▁written	-2814.0
akers	-2815.0
▁challeng	-2816.0
▁standard	-2817.0
▁gives	-2818.0
▁giving	-2819.0
▁ones	-2820.0
▁legal	-2821.0
▁sense	-2822.0
▁campaign	-2823.0
▁Sch	-2824.0
▁dest	-2825.0
▁innov	-2826.0
erved	-2827.0
▁door	-2828.0
▁patients	-2829.0
rom	-2830.0
▁mid	-2831.0
▁trust	-2832.0
urt	-2833.0
▁sus	-2834.0
▁wasn	-2835.0
▁Services	-2836.0
▁center	-2837.0
▁instead	-2838.0
aged	-2839.0
▁Produ	-2840.0
▁fab	-2841.0
▁Coun	-2842.0
▁heat	-2843.0
▁neg	-2844.0
▁fine	-2845.0
▁item	-2846.0
▁Great	-2847.0
▁target	-2848.0
erous	-2849.0
▁prem	-2850.0
erve	-2851.0
▁sold	-2852.0
▁White	-2853.0
aught	-2854.0
▁wish	-2855.0
▁Trans	-2856.0
▁parts	-2857.0
▁write	-2858.0
▁levels	-2859.0
▁lic	-2860.0
▁award	-2861.0
iring	-2862.0
arant	-2863.0
aves	-2864.0
▁cases	-2865.0
▁describ	-2866.0
▁picture	-2867.0
▁pers	-2868.0
▁partners	-2869.0
▁Web	-2870.0
▁dry	-2871.0
▁neigh	-2872.0
irit	-2873.0
▁Mod	-2874.0
▁Prof	-2875.0
▁stuff	-2876.0
ashington	-2877.0
ida	-2878.0
▁pull	-2879.0
▁conditions	-2880.0
▁ded	-2881.0
atives	-2882.0
▁green	-2883.0
▁California	-2884.0
▁broad	-2885.0
▁effic	-2886.0
▁Hol	-2887.0
board	-2888.0
▁Hall	-2889.0
put	-2890.0
rows	-2891.0
▁Program	-2892.0
ivity	-2893.0
▁began	-2894.0
▁sale	-2895.0
▁upon	-2896.0
istic	-2897.0
▁highly	-2898.0
▁interesting	-2899.0
TM	-2900.0
bit	-2901.0
OS	-2902.0
▁vot	-2903.0
▁fans	-2904.0
▁stories	-2905.0
inner	-2906.0
▁request	-2907.0
▁contract	-2908.0
▁remember	-2909.0
▁slow	-2910.0
▁Cle	-2911.0
▁emer	-2912.0
▁subs	-2913.0
▁answer	-2914.0
▁Techn	-2915.0
anch	-2916.0
▁comments	-2917.0
acing	-2918.0
ocol	-2919.0
▁bra	-2920.0
▁Phot	-2921.0
▁wood	-2922.0
▁Other	-2923.0
▁lower	-2924.0
▁sym	-2925.0
▁dead	-2926.0
orge	-2927.0
▁prim	-2928.0
orage	-2929.0
▁modern	-2930.0
▁player	-2931.0
▁cat	-2932.0
coming	-2933.0
bum	-2934.0
▁interested	-2935.0
ooth	-2936.0
▁reports	-2937.0
aches	-2938.0
▁except	-2939.0
ara	-2940.0
lev	-2941.0
▁dise	-2942.0
▁trip	-2943.0
▁teams	-2944.0
▁Jack	-2945.0
▁Texas	-2946.0
▁attention	-2947.0
▁equipment	-2948.0
▁paint	-2949.0
sy	-2950.0
▁fully	-2951.0
▁wrong	-2952.0
▁directly	-2953.0
▁starting	-2954.0
▁completely	-2955.0
▁organization	-2956.0
▁types	-2957.0
uk	-2958.0
wide	-2959.0
▁Green	-2960.0
mm	-2961.0
▁resources	-2962.0
▁Last	-2963.0
▁www	-2964.0
ET	-2965.0
urb	-2966.0
ager	-2967.0
▁document	-2968.0
▁themselves	-2969.0
apan	-2970.0
▁dru	-2971.0
▁solutions	-2972.0
▁stru	-2973.0
▁viol	-2974.0
ashion	-2975.0
▁bank	-2976.0
▁Washington	-2977.0
▁Loc	-2978.0
▁Rem	-2979.0
ament	-2980.0
▁multiple	-2981.0
▁Association	-2982.0
▁band	-2983.0
▁achieve	-2984.0
▁condition	-2985.0
▁gold	-2986.0
▁businesses	-2987.0
▁Twitter	-2988.0
uses	-2989.0
▁wait	-2990.0
ule	-2991.0
▁Go	-2992.0
ening	-2993.0
udd	-2994.0
▁Each	-2995.0
▁affect	-2996.0
▁opportunities	-2997.0
▁vac	-2998.0
▁Gener	-2999.0
urer	-3000.0
▁hop	-3001.0
EC	-3002.0
▁sett	-3003.0
▁policy	-3004.0
▁Par	-3005.0
▁led	-3006.0
ension	-3007.0
▁thinking	-3008.0
▁dream	-3009.0
▁Once	-3010.0
raz	-3011.0
rel	-3012.0
▁groups	-3013.0
▁planning	-3014.0
▁commercial	-3015.0
EO	-3016.0
He	-3017.0
ffee	-3018.0
olf	-3019.0
▁Spe	-3020.0
▁separ	-3021.0
▁applications	-3022.0
▁qual	-3023.0
▁streng	-3024.0
▁approach	-3025.0
▁families	-3026.0
▁solution	-3027.0
▁Del	-3028.0
▁firm	-3029.0
▁Class	-3030.0
▁express	-3031.0
ores	-3032.0
▁gave	-3033.0
▁Found	-3034.0
enty	-3035.0
iles	-3036.0
▁offe	-3037.0
▁consult	-3038.0
▁Year	-3039.0
▁gift	-3040.0
▁subject	-3041.0
▁Mem	-3042.0
AD	-3043.0
▁Afric	-3044.0
▁prices	-3045.0
▁successful	-3046.0
ties	-3047.0
▁positive	-3048.0
▁employees	-3049.0
arlier	-3050.0
▁blood	-3051.0
▁AN	-3052.0
▁race	-3053.0
itute	-3054.0
▁deliver	-3055.0
oul	-3056.0
▁join	-3057.0
ares	-3058.0
▁itself	-3059.0
▁King	-3060.0
▁shot	-3061.0
▁advice	-3062.0
▁cert	-3063.0
▁THE	-3064.0
▁eye	-3065.0
riend	-3066.0
▁hour	-3067.0
▁defe	-3068.0
▁saying	-3069.0
▁healthy	-3070.0
▁glass	-3071.0
▁creating	-3072.0
▁Sub	-3073.0
▁According	-3074.0
▁dark	-3075.0
ration	-3076.0
▁spent	-3077.0
▁div	-3078.0
▁Even	-3079.0
▁Why	-3080.0
field	-3081.0
▁cy	-3082.0
itely	-3083.0
ford	-3084.0
▁Best	-3085.0
▁cancer	-3086.0
▁Christmas	-3087.0
▁effective	-3088.0
▁serve	-3089.0
omen	-3090.0
▁sites	-3091.0
▁budget	-3092.0
▁Whe	-3093.0
▁Road	-3094.0
▁lif	-3095.0
▁goals	-3096.0
▁message	-3097.0
king	-3098.0
▁Vis	-3099.0
▁reve	-3100.0
mb	-3101.0
down	-3102.0
▁Paul	-3103.0
▁fair	-3104.0
▁India	-3105.0
▁average	-3106.0
▁Dan	-3107.0
▁fix	-3108.0
▁circ	-3109.0
▁Office	-3110.0
▁Pri	-3111.0
▁condu	-3112.0
▁East	-3113.0
▁reach	-3114.0
elling	-3115.0
▁Since	-3116.0
▁cross	-3117.0
aughter	-3118.0
▁traditional	-3119.0
▁extreme	-3120.0
▁organiz	-3121.0
▁director	-3122.0
PS	-3123.0
▁Hot	-3124.0
▁implement	-3125.0
Ch	-3126.0
▁sometimes	-3127.0
▁physical	-3128.0
▁obs	-3129.0
ipped	-3130.0
▁camer	-3131.0
ords	-3132.0
vis	-3133.0
▁Oh	-3134.0
▁opp	-3135.0
▁adult	-3136.0
▁terms	-3137.0
iable	-3138.0
▁Germ	-3139.0
▁plant	-3140.0
▁wonderful	-3141.0
US	-3142.0
rote	-3143.0
▁hor	-3144.0
▁Many	-3145.0
▁Rec	-3146.0
▁aim	-3147.0
▁attempt	-3148.0
▁limited	-3149.0
▁pictures	-3150.0
tee	-3151.0
▁Japan	-3152.0
▁See	-3153.0
▁Develop	-3154.0
▁excellent	-3155.0
▁dro	-3156.0
urning	-3157.0
ysis	-3158.0
▁mount	-3159.0
BC	-3160.0
▁emb	-3161.0
▁Work	-3162.0
imately	-3163.0
onse	-3164.0
▁brought	-3165.0
uth	-3166.0
yond	-3167.0
▁Ann	-3168.0
▁quarter	-3169.0
hest	-3170.0
▁title	-3171.0
▁section	-3172.0
ecutive	-3173.0
▁block	-3174.0
▁delivery	-3175.0
▁Mor	-3176.0
▁became	-3177.0
▁farm	-3178.0
▁arr	-3179.0
▁carry	-3180.0
▁effort	-3181.0
▁IN	-3182.0
▁kitchen	-3183.0
▁mention	-3184.0
▁developed	-3185.0
▁imm	-3186.0
inary	-3187.0
▁Use	-3188.0
iance	-3189.0
yright	-3190.0
reci	-3191.0
▁jud	-3192.0
▁fish	-3193.0
▁China	-3194.0
▁Inter	-3195.0
▁countries	-3196.0
estern	-3197.0
▁progress	-3198.0
▁necessary	-3199.0
▁ge	-3200.0
▁suppl	-3201.0
▁sweet	-3202.0
pendent	-3203.0
▁complex	-3204.0
ocks	-3205.0
▁baby	-3206.0
vest	-3207.0
▁felt	-3208.0
mitted	-3209.0
▁feeling	-3210.0
▁System	-3211.0
▁nation	-3212.0
▁promot	-3213.0
▁Top	-3214.0
▁Make	-3215.0
▁Dem	-3216.0
▁Good	-3217.0
hold	-3218.0
iced	-3219.0
▁birth	-3220.0
▁sleep	-3221.0
▁growing	-3222.0
▁impress	-3223.0
porate	-3224.0
▁Public	-3225.0
▁places	-3226.0
ocr	-3227.0
▁seven	-3228.0
▁IT	-3229.0
▁Flor	-3230.0
ffects	-3231.0
venue	-3232.0
▁Mac	-3233.0
▁war	-3234.0
▁heard	-3235.0
itation	-3236.0
gu	-3237.0
pite	-3238.0
▁weather	-3239.0
▁Lear	-3240.0
▁Open	-3241.0
▁region	-3242.0
▁Michael	-3243.0
haps	-3244.0
▁billion	-3245.0
▁son	-3246.0
itary	-3247.0
▁star	-3248.0
▁Sur	-3249.0
duc	-3250.0
▁Today	-3251.0
▁hotel	-3252.0
▁wants	-3253.0
Re	-3254.0
▁Thank	-3255.0
▁stick	-3256.0
▁college	-3257.0
▁construction	-3258.0
IL	-3259.0
▁bi	-3260.0
▁album	-3261.0
▁spend	-3262.0
▁mat	-3263.0
▁cold	-3264.0
▁medic	-3265.0
▁stage	-3266.0
▁ver	-3267.0
▁Port	-3268.0
▁Director	-3269.0
▁individuals	-3270.0
▁double	-3271.0
nded	-3272.0
▁Canada	-3273.0
▁Market	-3274.0
):	-3275.0
EL	-3276.0
aries	-3277.0
▁Down	-3278.0
▁convers	-3279.0
▁Russ	-3280.0
▁profession	-3281.0
ying	-3282.0
▁ble	-3283.0
▁speed	-3284.0
▁distrib	-3285.0
pects	-3286.0
▁exerc	-3287.0
rup	-3288.0
▁ST	-3289.0
aled	-3290.0
▁finished	-3291.0
fl	-3292.0
▁gas	-3293.0
istry	-3294.0
▁suit	-3295.0
ils	-3296.0
▁pages	-3297.0
▁statement	-3298.0
pre	-3299.0
ancy	-3300.0
▁charge	-3301.0
▁ing	-3302.0
▁spot	-3303.0
▁ult	-3304.0
▁requirements	-3305.0
▁finally	-3306.0
▁schools	-3307.0
▁vehicle	-3308.0
▁smart	-3309.0
▁annual	-3310.0
▁Windows	-3311.0
".	-3312.0
ado	-3313.0
wor	-3314.0
▁eat	-3315.0
useum	-3316.0
▁feet	-3317.0
▁Board	-3318.0
▁advant	-3319.0
ibly	-3320.0
▁blue	-3321.0
▁load	-3322.0
▁aware	-3323.0
unk	-3324.0
▁Gold	-3325.0
▁Research	-3326.0
▁straight	-3327.0
▁appl	-3328.0
arc	-3329.0
▁Mark	-3330.0
▁nearly	-3331.0
ato	-3332.0
▁Bel	-3333.0
▁Tom	-3334.0
▁tried	-3335.0
▁hous	-3336.0
▁avoid	-3337.0
aling	-3338.0
ports	-3339.0
▁difference	-3340.0
▁wrote	-3341.0
▁William	-3342.0
▁Sol	-3343.0
▁pattern	-3344.0
owl	-3345.0
ened	-3346.0
▁James	-3347.0
▁respond	-3348.0
▁challenge	-3349.0
▁Bre	-3350.0
▁dog	-3351.0
▁beginning	-3352.0
ION	-3353.0
▁Educ	-3354.0
▁About	-3355.0
▁helping	-3356.0
:||	-3357.0
▁benefit	-3358.0
▁insurance	-3359.0
▁situation	-3360.0
iment	-3361.0
▁essential	-3362.0
▁imag	-3363.0
ancing	-3364.0
unte	-3365.0
▁device	-3366.0
ceed	-3367.0
▁Obama	-3368.0
rast	-3369.0
▁shop	-3370.0
ological	-3371.0
▁Care	-3372.0
▁Indian	-3373.0
▁political	-3374.0
box	-3375.0
uted	-3376.0
▁Time	-3377.0
▁loved	-3378.0
▁Review	-3379.0
ube	-3380.0
▁nut	-3381.0
▁pow	-3382.0
overn	-3383.0
▁wear	-3384.0
▁Apple	-3385.0
▁Sl	-3386.0
▁Mag	-3387.0
olute	-3388.0
▁Find	-3389.0
▁activity	-3390.0
▁devices	-3391.0
▁moving	-3392.0
▁Met	-3393.0
▁lik	-3394.0
▁paid	-3395.0
▁enh	-3396.0
▁Club	-3397.0
▁Hel	-3398.0
▁uses	-3399.0
▁eight	-3400.0
▁exhib	-3401.0
▁Court	-3402.0
▁turned	-3403.0
oms	-3404.0
oses	-3405.0
▁posted	-3406.0
▁towards	-3407.0
”.	-3408.0
▁nature	-3409.0
▁Sk	-3410.0
▁partner	-3411.0
asy	-3412.0
▁investment	-3413.0
ourney	-3414.0
▁appreci	-3415.0
▁offering	-3416.0
▁temper	-3417.0
▁contain	-3418.0
▁largest	-3419.0
ivil	-3420.0
▁knew	-3421.0
▁ahead	-3422.0
oves	-3423.0
rench	-3424.0
idered	-3425.0
▁retail	-3426.0
▁hus	-3427.0
▁eyes	-3428.0
▁owners	-3429.0
▁language	-3430.0
▁Ant	-3431.0
inger	-3432.0
▁expand	-3433.0
house	-3434.0
ey	-3435.0
rences	-3436.0
ios	-3437.0
▁rent	-3438.0
ned	-3439.0
▁cas	-3440.0
▁connect	-3441.0
▁wife	-3442.0
ampions	-3443.0
▁advert	-3444.0
▁Rel	-3445.0
▁Rich	-3446.0
▁reduce	-3447.0
▁European	-3448.0
▁guarant	-3449.0
ago	-3450.0
cause	-3451.0
▁Look	-3452.0
▁sports	-3453.0
▁correct	-3454.0
aly	-3455.0
anta	-3456.0
▁categ	-3457.0
▁client	-3458.0
▁states	-3459.0
▁consist	-3460.0
pri	-3461.0
▁maybe	-3462.0
▁named	-3463.0
▁definitely	-3464.0
hips	-3465.0
▁influ	-3466.0
▁entertain	-3467.0
erry	-3468.0
hens	-3469.0
▁accur	-3470.0
▁concept	-3471.0
osing	-3472.0
ounds	-3473.0
▁runs	-3474.0
▁grand	-3475.0
▁stress	-3476.0
IP	-3477.0
change	-3478.0
▁Super	-3479.0
▁guide	-3480.0
▁homes	-3481.0
▁Have	-3482.0
▁thous	-3483.0
last	-3484.0
▁jobs	-3485.0
▁offered	-3486.0
estival	-3487.0
▁earlier	-3488.0
▁immediately	-3489.0
▁doll	-3490.0
▁numbers	-3491.0
sych	-3492.0
▁conc	-3493.0
iers	-3494.0
▁decl	-3495.0
▁Fam	-3496.0
esome	-3497.0
▁Rob	-3498.0
▁rates	-3499.0
▁Council	-3500.0
azine	-3501.0
▁rev	-3502.0
▁Community	-3503.0
▁path	-3504.0
▁collabor	-3505.0
lying	-3506.0
roud	-3507.0
▁Cop	-3508.0
You	-3509.0
alt	-3510.0
orrow	-3511.0
▁candid	-3512.0
▁interact	-3513.0
ails	-3514.0
▁remain	-3515.0
▁II	-3516.0
more	-3517.0
▁bottom	-3518.0
sec	-3519.0
dule	-3520.0
▁Sum	-3521.0
▁Cong	-3522.0
▁belie	-3523.0
▁drink	-3524.0
▁pieces	-3525.0
▁exactly	-3526.0
asc	-3527.0
lim	-3528.0
▁tips	-3529.0
▁Micro	-3530.0
▁View	-3531.0
iation	-3532.0
▁overall	-3533.0
▁max	-3534.0
▁federal	-3535.0
▁storage	-3536.0
vin	-3537.0
icious	-3538.0
▁Custom	-3539.0
▁opening	-3540.0
▁demand	-3541.0
▁Two	-3542.0
place	-3543.0
▁surround	-3544.0
▁Cur	-3545.0
▁histor	-3546.0
▁Bay	-3547.0
orial	-3548.0
▁Rober	-3549.0
▁adjust	-3550.0
ulations	-3551.0
▁shipping	-3552.0
▁strateg	-3553.0
▁Internet	-3554.0
▁active	-3555.0
▁threat	-3556.0
ram	-3557.0
▁Win	-3558.0
▁looked	-3559.0
oma	-3560.0
▁ten	-3561.0
▁occas	-3562.0
▁length	-3563.0
inated	-3564.0
▁served	-3565.0
▁conference	-3566.0
ico	-3567.0
iny	-3568.0
▁IS	-3569.0
▁guys	-3570.0
▁rock	-3571.0
▁button	-3572.0
▁garden	-3573.0
▁Florida	-3574.0
▁acqu	-3575.0
▁Police	-3576.0
▁easier	-3577.0
▁Angel	-3578.0
yd	-3579.0
order	-3580.0
undred	-3581.0
▁Island	-3582.0
▁father	-3583.0
oly	-3584.0
▁bath	-3585.0
▁speak	-3586.0
▁attract	-3587.0
If	-3588.0
▁normal	-3589.0
▁thanks	-3590.0
dom	-3591.0
umn	-3592.0
▁Love	-3593.0
▁thank	-3594.0
▁bill	-3595.0
▁People	-3596.0
▁background	-3597.0
illa	-3598.0
rial	-3599.0
▁born	-3600.0
arily	-3601.0
▁girls	-3602.0
rig	-3603.0
▁Ev	-3604.0
▁Det	-3605.0
▁wedding	-3606.0
care	-3607.0
▁lots	-3608.0
▁damage	-3609.0
roid	-3610.0
▁Big	-3611.0
▁fat	-3612.0
▁pet	-3613.0
bl	-3614.0
ses	-3615.0
▁Ty	-3616.0
▁culture	-3617.0
▁replace	-3618.0
▁creative	-3619.0
▁internet	-3620.0
▁completed	-3621.0
▁assess	-3622.0
OL	-3623.0
▁Call	-3624.0
▁prec	-3625.0
aduate	-3626.0
atever	-3627.0
mod	-3628.0
que	-3629.0
▁Life	-3630.0
▁Team	-3631.0
▁wine	-3632.0
▁Company	-3633.0
▁husband	-3634.0
ij	-3635.0
▁coach	-3636.0
▁beyond	-3637.0
aith	-3638.0
▁cards	-3639.0
ipp	-3640.0
▁cash	-3641.0
▁Child	-3642.0
▁haven	-3643.0
▁altern	-3644.0
ota	-3645.0
▁Matt	-3646.0
▁guy	-3647.0
phone	-3648.0
▁depend	-3649.0
▁setting	-3650.0
leg	-3651.0
▁bul	-3652.0
▁Back	-3653.0
▁Show	-3654.0
▁miles	-3655.0
▁er	-3656.0
antly	-3657.0
force	-3658.0
▁transport	-3659.0
▁Management	-3660.0
ustain	-3661.0
body	-3662.0
ston	-3663.0
wise	-3664.0
▁emot	-3665.0
▁behav	-3666.0
▁driving	-3667.0
▁cream	-3668.0
▁response	-3669.0
iling	-3670.0
▁pred	-3671.0
▁estate	-3672.0
ously	-3673.0
het	-3674.0
▁USA	-3675.0
oving	-3676.0
isions	-3677.0
▁owner	-3678.0
▁Australia	-3679.0
friend	-3680.0
▁Pet	-3681.0
▁Sun	-3682.0
▁cho	-3683.0
error	-3684.0
▁Contact	-3685.0
izz	-3686.0
▁excited	-3687.0
▁selection	-3688.0
▁Ir	-3689.0
ales	-3690.0
anging	-3691.0
▁Ret	-3692.0
▁middle	-3693.0
▁efforts	-3694.0
▁particularly	-3695.0
▁Plan	-3696.0
▁Pal	-3697.0
itect	-3698.0
icks	-3699.0
▁Dri	-3700.0
▁helped	-3701.0
door	-3702.0
ustr	-3703.0
▁Lake	-3704.0
▁doub	-3705.0
▁colors	-3706.0
▁inform	-3707.0
▁Ve	-3708.0
aper	-3709.0
▁files	-3710.0
▁allowed	-3711.0
▁lines	-3712.0
▁existing	-3713.0
▁Bank	-3714.0
▁satis	-3715.0
▁patient	-3716.0
▁comfortable	-3717.0
istered	-3718.0
▁welcome	-3719.0
▁considered	-3720.0
▁responsible	-3721.0
▁clot	-3722.0
▁drop	-3723.0
▁truly	-3724.0
▁coffee	-3725.0
▁understanding	-3726.0
DA	-3727.0
▁plus	-3728.0
▁Govern	-3729.0
▁Thom	-3730.0
▁measure	-3731.0
set	-3732.0
▁economic	-3733.0
▁Yes	-3734.0
oming	-3735.0
▁frame	-3736.0
▁slight	-3737.0
▁journey	-3738.0
isl	-3739.0
▁Dec	-3740.0
▁indic	-3741.0
▁degree	-3742.0
▁ingred	-3743.0
▁himself	-3744.0
bon	-3745.0
▁purpose	-3746.0
▁tom	-3747.0
▁surv	-3748.0
▁changed	-3749.0
▁liter	-3750.0
▁mission	-3751.0
free	-3752.0
nown	-3753.0
ences	-3754.0
onstr	-3755.0
ona	-3756.0
▁Although	-3757.0
EM	-3758.0
▁pen	-3759.0
ologies	-3760.0
▁models	-3761.0
reed	-3762.0
▁train	-3763.0
▁winter	-3764.0
▁prot	-3765.0
▁stream	-3766.0
▁highest	-3767.0
ads	-3768.0
see	-3769.0
encies	-3770.0
▁prefer	-3771.0
▁seeing	-3772.0
▁strugg	-3773.0
▁evening	-3774.0
press	-3775.0
▁Take	-3776.0
▁artist	-3777.0
▁talking	-3778.0
OW	-3779.0
▁Camp	-3780.0
▁Phil	-3781.0
▁afford	-3782.0
▁Information	-3783.0
▁Str	-3784.0
▁sty	-3785.0
▁Smith	-3786.0
▁fashion	-3787.0
▁Republic	-3788.0
▁gun	-3789.0
▁disease	-3790.0
▁pool	-3791.0
▁absolute	-3792.0
OV	-3793.0
▁Sen	-3794.0
▁shopping	-3795.0
raw	-3796.0
oman	-3797.0
apter	-3798.0
▁River	-3799.0
▁Church	-3800.0
met	-3801.0
soft	-3802.0
▁Mart	-3803.0
▁lack	-3804.0
▁appoint	-3805.0
▁heavy	-3806.0
▁letter	-3807.0
rem	-3808.0
▁Color	-3809.0
▁British	-3810.0
▁daughter	-3811.0
▁fem	-3812.0
▁Rock	-3813.0
▁cast	-3814.0
▁brother	-3815.0
rey	-3816.0
▁Sing	-3817.0
▁flav	-3818.0
porary	-3819.0
▁occur	-3820.0
▁smooth	-3821.0
▁opin	-3822.0
▁increased	-3823.0
▁Jes	-3824.0
▁Music	-3825.0
▁moved	-3826.0
▁proud	-3827.0
▁couldn	-3828.0
▁launch	-3829.0
▁analysis	-3830.0
▁organizations	-3831.0
dd	-3832.0
▁PC	-3833.0
tion	-3834.0
▁mer	-3835.0
